{"a": 0, "ab": 1, "ability": 2, "abl": 3, "able": 4, "ableness": 5, "ably": 6, "ac": 7, "ace": 8, "ach": 9, "ack": 10, "act": 11, "ad": 12, "ae": 13, "af": 14, "aff": 15, "ag": 16, "age": 17, "ah": 18, "ail": 19, "air": 20, "ak": 21, "al": 22, "all": 23, "ally": 24, "am": 25, "amb": 26, "an": 27, "anc": 28, "ance": 29, "anch": 30, "and": 31, "ane": 32, "ang": 33, "ank": 34, "ann": 35, "ans": 36, "ant": 37, "anth": 38, "ap": 39, "aph": 40, "ar": 41, "arch": 42, "ard": 43, "art": 44, "ary": 45, "as": 46, "ash": 47, "ass": 48, "ast": 49, "at": 50, "ate": 51, "ated": 52, "ater": 53, "ates": 54, "ath": 55, "atic": 56, "ating": 57, "ation": 58, "ations": 59, "ative": 60, "ator": 61, "att": 62, "au": 63, "aut": 64, "av": 65, "aw": 66, "ax": 67, "ay": 68, "az": 69, "b": 70, "back": 71, "bal": 72, "bar": 73, "be": 74, "bed": 75, "ber": 76, "bl": 77, "ble": 78, "bo": 79, "bor": 80, "br": 81, "bra": 82, "bre": 83, "bro": 84, "bur": 85, "c": 86, "ca": 87, "cal": 88, "can": 89, "cap": 90, "car": 91, "cat": 92, "ce": 93, "cent": 94, "cer": 95, "ch": 96, "char": 97, "che": 98, "ck": 99, "cl": 100, "co": 101, "col": 102, "com": 103, "con": 104, "cop": 105, "cor": 106, "coun": 107, "counter": 108, "cr": 109, "ct": 110, "cul": 111, "cur": 112, "cy": 113, "d": 114, "de": 115, "dec": 116, "dem": 117, "der": 118, "des": 119, "di": 120, "dis": 121, "do": 122, "dr": 123, "dra": 124, "dro": 125, "e": 126, "ec": 127, "ect": 128, "ed": 129, "edness": 130, "el": 131, "ele": 132, "ell": 133, "ely": 134, "em": 135, "ement": 136, "en": 137, "enc": 138, "ence": 139, "end": 140, "ene": 141, "eness": 142, "enn": 143, "ens": 144, "ent": 145, "ep": 146, "ept": 147, "er": 148, "ered": 149, "erous": 150, "ers": 151, "es": 152, "ess": 153, "est": 154, "et": 155, "eter": 156, "eth": 157, "etic": 158, "ev": 159, "ex": 160, "ey": 161, "f": 162, "fe": 163, "fer": 164, "ff": 165, "fl": 166, "fo": 167, "for": 168, "fr": 169, "ful": 170, "g": 171, "gal": 172, "gar": 173, "ge": 174, "ged": 175, "gen": 176, "ger": 177, "gl": 178, "go": 179, "gr": 180, "gra": 181, "gre": 182, "gu": 183, "h": 184, "ha": 185, "hal": 186, "har": 187, "he": 188, "head": 189, "hem": 190, "her": 191, "ho": 192, "hy": 193, "hyper": 194, "i": 195, "ia": 196, "ial": 197, "ian": 198, "ias": 199, "ib": 200, "ible": 201, "ic": 202, "ical": 203, "ically": 204, "ice": 205, "ich": 206, "ick": 207, "ict": 208, "id": 209, "idae": 210, "ide": 211, "ie": 212, "ied": 213, "ier": 214, "ies": 215, "iest": 216, "if": 217, "ific": 218, "iform": 219, "ify": 220, "ig": 221, "igh": 222, "ight": 223, "ign": 224, "ik": 225, "il": 226, "ile": 227, "ility": 228, "ill": 229, "ille": 230, "ily": 231, "im": 232, "in": 233, "inc": 234, "ind": 235, "ine": 236, "ined": 237, "ines": 238, "iness": 239, "ing": 240, "ingly": 241, "ings": 242, "ink": 243, "inn": 244, "ins": 245, "int": 246, "inter": 247, "io": 248, "ion": 249, "ious": 250, "ip": 251, "ir": 252, "ire": 253, "is": 254, "ise": 255, "ised": 256, "ish": 257, "ising": 258, "ism": 259, "iss": 260, "ist": 261, "istic": 262, "ists": 263, "it": 264, "ite": 265, "ith": 266, "itic": 267, "ities": 268, "ition": 269, "itis": 270, "itt": 271, "ity": 272, "ium": 273, "iv": 274, "ive": 275, "ively": 276, "iveness": 277, "ix": 278, "iz": 279, "ization": 280, "ize": 281, "ized": 282, "izing": 283, "j": 284, "jo": 285, "k": 286, "ke": 287, "ker": 288, "l": 289, "la": 290, "land": 291, "last": 292, "le": 293, "led": 294, "ler": 295, "les": 296, "less": 297, "let": 298, "li": 299, "like": 300, "ling": 301, "lo": 302, "lor": 303, "low": 304, "ly": 305, "m": 306, "ma": 307, "mal": 308, "man": 309, "mar": 310, "mat": 311, "me": 312, "med": 313, "mel": 314, "men": 315, "ment": 316, "mer": 317, "met": 318, "mic": 319, "min": 320, "mis": 321, "mo": 322, "mon": 323, "my": 324, "n": 325, "ne": 326, "ness": 327, "non": 328, "o": 329, "ob": 330, "oc": 331, "och": 332, "ock": 333, "od": 334, "of": 335, "og": 336, "ogen": 337, "ograph": 338, "oid": 339, "ok": 340, "ol": 341, "old": 342, "olog": 343, "ology": 344, "om": 345, "ome": 346, "omet": 347, "omy": 348, "on": 349, "ond": 350, "one": 351, "ong": 352, "ons": 353, "ont": 354, "op": 355, "oph": 356, "or": 357, "ore": 358, "orm": 359, "orn": 360, "orph": 361, "ors": 362, "ort": 363, "os": 364, "ose": 365, "osis": 366, "ost": 367, "ot": 368, "oth": 369, "ous": 370, "ously": 371, "out": 372, "ov": 373, "over": 374, "ow": 375, "own": 376, "ox": 377, "p": 378, "pa": 379, "pal": 380, "pan": 381, "par": 382, "pe": 383, "ped": 384, "per": 385, "pet": 386, "ph": 387, "phal": 388, "pl": 389, "ple": 390, "po": 391, "pol": 392, "poly": 393, "por": 394, "pos": 395, "post": 396, "pr": 397, "pre": 398, "pres": 399, "pro": 400, "pse": 401, "pseud": 402, "pt": 403, "py": 404, "q": 405, "qu": 406, "quas": 407, "que": 408, "r": 409, "ra": 410, "ram": 411, "raph": 412, "re": 413, "red": 414, "rel": 415, "res": 416, "ret": 417, "rh": 418, "ri": 419, "ric": 420, "ro": 421, "rom": 422, "ron": 423, "rop": 424, "ros": 425, "row": 426, "ry": 427, "s": 428, "sal": 429, "sc": 430, "sch": 431, "se": 432, "sel": 433, "self": 434, "sem": 435, "ser": 436, "sh": 437, "ship": 438, "sk": 439, "sl": 440, "sn": 441, "so": 442, "sol": 443, "son": 444, "sp": 445, "st": 446, "ste": 447, "ster": 448, "str": 449, "su": 450, "sub": 451, "super": 452, "sw": 453, "sy": 454, "t": 455, "ta": 456, "te": 457, "ted": 458, "ter": 459, "th": 460, "the": 461, "ther": 462, "tic": 463, "ting": 464, "to": 465, "ton": 466, "tr": 467, "tra": 468, "trans": 469, "tro": 470, "ts": 471, "tur": 472, "tw": 473, "ty": 474, "u": 475, "ual": 476, "ub": 477, "uc": 478, "uck": 479, "uct": 480, "ud": 481, "ue": 482, "ug": 483, "ugh": 484, "ul": 485, "ular": 486, "ult": 487, "um": 488, "un": 489, "unc": 490, "und": 491, "under": 492, "ung": 493, "uns": 494, "unt": 495, "up": 496, "ur": 497, "ure": 498, "uro": 499, "us": 500, "ush": 501, "ust": 502, "ut": 503, "v": 504, "val": 505, "ve": 506, "ven": 507, "ver": 508, "ville": 509, "w": 510, "war": 511, "we": 512, "well": 513, "wh": 514, "wo": 515, "wood": 516, "wor": 517, "x": 518, "y": 519, "yl": 520, "ym": 521, "yn": 522, "ys": 523, "z": 524, "zo": 525, "_": 526}