{"a": 0, "ab": 1, "ability": 2, "abl": 3, "able": 4, "ableness": 5, "ably": 6, "abol": 7, "ac": 8, "acanth": 9, "acc": 10, "ace": 11, "aceae": 12, "aceous": 13, "acet": 14, "ach": 15, "achy": 16, "acid": 17, "ack": 18, "aco": 19, "acon": 20, "acqu": 21, "acro": 22, "act": 23, "acter": 24, "actic": 25, "actin": 26, "action": 27, "actyl": 28, "acy": 29, "ad": 30, "ada": 31, "add": 32, "ade": 33, "aded": 34, "aden": 35, "ader": 36, "ades": 37, "adi": 38, "ading": 39, "ado": 40, "ads": 41, "adv": 42, "ae": 43, "aean": 44, "aer": 45, "af": 46, "aff": 47, "after": 48, "ag": 49, "age": 50, "aged": 51, "ager": 52, "ages": 53, "agg": 54, "agin": 55, "aging": 56, "agn": 57, "agog": 58, "agon": 59, "agu": 60, "ah": 61, "ahs": 62, "ai": 63, "ail": 64, "ain": 65, "air": 66, "ak": 67, "ake": 68, "aked": 69, "aker": 70, "akes": 71, "aking": 72, "al": 73, "ala": 74, "alb": 75, "ale": 76, "aled": 77, "ales": 78, "alia": 79, "aling": 80, "alism": 81, "alist": 82, "ality": 83, "alize": 84, "alk": 85, "all": 86, "allo": 87, "ally": 88, "als": 89, "alt": 90, "aly": 91, "am": 92, "ama": 93, "amar": 94, "amb": 95, "ame": 96, "amed": 97, "ament": 98, "amer": 99, "americ": 100, "amic": 101, "amin": 102, "amine": 103, "aming": 104, "amm": 105, "amorph": 106, "amp": 107, "amph": 108, "ams": 109, "amy": 110, "an": 111, "ana": 112, "anal": 113, "anat": 114, "anc": 115, "ance": 116, "anced": 117, "ances": 118, "anch": 119, "ancy": 120, "and": 121, "ander": 122, "ane": 123, "anes": 124, "ang": 125, "ange": 126, "angel": 127, "anger": 128, "angi": 129, "angle": 130, "angu": 131, "ani": 132, "anim": 133, "anis": 134, "anism": 135, "ank": 136, "ann": 137, "ano": 138, "ans": 139, "ant": 140, "ante": 141, "anth": 142, "anthrop": 143, "anti": 144, "antic": 145, "antim": 146, "antip": 147, "antis": 148, "antly": 149, "ants": 150, "any": 151, "ap": 152, "ape": 153, "aped": 154, "aph": 155, "apor": 156, "app": 157, "apper": 158, "appro": 159, "aps": 160, "apt": 161, "apy": 162, "aqu": 163, "ar": 164, "ara": 165, "arch": 166, "ard": 167, "ards": 168, "are": 169, "ared": 170, "arg": 171, "ari": 172, "aria": 173, "arian": 174, "aries": 175, "arily": 176, "arist": 177, "ark": 178, "arm": 179, "arn": 180, "arr": 181, "ars": 182, "art": 183, "arter": 184, "arth": 185, "artic": 186, "ary": 187, "aryn": 188, "aryng": 189, "as": 190, "asc": 191, "ase": 192, "ases": 193, "ash": 194, "asia": 195, "asis": 196, "asm": 197, "ason": 198, "ass": 199, "ast": 200, "asted": 201, "aster": 202, "astic": 203, "at": 204, "ata": 205, "atch": 206, "ate": 207, "ated": 208, "ately": 209, "ateness": 210, "ater": 211, "aters": 212, "ates": 213, "ath": 214, "athe": 215, "ather": 216, "athy": 217, "atic": 218, "atin": 219, "ating": 220, "atingly": 221, "ation": 222, "ational": 223, "ationist": 224, "ations": 225, "ative": 226, "atively": 227, "ativeness": 228, "ato": 229, "ator": 230, "ators": 231, "atory": 232, "ats": 233, "att": 234, "atter": 235, "atur": 236, "ature": 237, "au": 238, "aud": 239, "aug": 240, "aur": 241, "aut": 242, "auto": 243, "aux": 244, "av": 245, "ave": 246, "aved": 247, "aver": 248, "aves": 249, "aw": 250, "awn": 251, "ax": 252, "ay": 253, "ays": 254, "az": 255, "b": 256, "ba": 257, "bab": 258, "bac": 259, "back": 260, "bacter": 261, "bad": 262, "bag": 263, "bal": 264, "ball": 265, "ban": 266, "band": 267, "bank": 268, "bar": 269, "bark": 270, "bas": 271, "bat": 272, "bath": 273, "batt": 274, "be": 275, "bear": 276, "bearing": 277, "bec": 278, "bed": 279, "beg": 280, "bel": 281, "bell": 282, "bem": 283, "ben": 284, "benz": 285, "ber": 286, "berg": 287, "berries": 288, "berry": 289, "bers": 290, "bert": 291, "bes": 292, "best": 293, "bet": 294, "bi": 295, "bib": 296, "bic": 297, "bid": 298, "big": 299, "bil": 300, "bill": 301, "bin": 302, "bing": 303, "bir": 304, "bird": 305, "bis": 306, "bit": 307, "bl": 308, "bla": 309, "black": 310, "blast": 311, "ble": 312, "bled": 313, "blind": 314, "bling": 315, "blo": 316, "block": 317, "blood": 318, "blow": 319, "blue": 320, "bly": 321, "bo": 322, "board": 323, "boat": 324, "bob": 325, "bod": 326, "bog": 327, "bol": 328, "bon": 329, "book": 330, "bor": 331, "born": 332, "boro": 333, "bos": 334, "bot": 335, "bott": 336, "bound": 337, "bour": 338, "bow": 339, "box": 340, "boy": 341, "br": 342, "bra": 343, "branch": 344, "bre": 345, "break": 346, "breath": 347, "bred": 348, "bric": 349, "brid": 350, "bro": 351, "broad": 352, "bron": 353, "brow": 354, "brown": 355, "bs": 356, "bu": 357, "buck": 358, "bud": 359, "bug": 360, "built": 361, "bul": 362, "bull": 363, "bur": 364, "burg": 365, "burn": 366, "bus": 367, "bush": 368, "bust": 369, "but": 370, "by": 371, "c": 372, "ca": 373, "cab": 374, "cac": 375, "cad": 376, "cal": 377, "call": 378, "cam": 379, "can": 380, "cand": 381, "cann": 382, "cant": 383, "cap": 384, "car": 385, "card": 386, "carn": 387, "cas": 388, "cass": 389, "cast": 390, "cat": 391, "cate": 392, "cath": 393, "cav": 394, "ce": 395, "ced": 396, "cel": 397, "cell": 398, "cen": 399, "cent": 400, "cephal": 401, "cer": 402, "cere": 403, "ces": 404, "cess": 405, "cet": 406, "ch": 407, "cha": 408, "chal": 409, "cham": 410, "chan": 411, "chap": 412, "char": 413, "che": 414, "check": 415, "ched": 416, "chel": 417, "chem": 418, "cher": 419, "ches": 420, "chi": 421, "chil": 422, "chin": 423, "ching": 424, "chlor": 425, "chn": 426, "cho": 427, "chol": 428, "chon": 429, "chor": 430, "christ": 431, "chro": 432, "chrom": 433, "chron": 434, "chry": 435, "chur": 436, "chy": 437, "cin": 438, "cing": 439, "cir": 440, "circum": 441, "cit": 442, "civ": 443, "ck": 444, "cl": 445, "cla": 446, "clad": 447, "clam": 448, "class": 449, "cle": 450, "cler": 451, "clim": 452, "clin": 453, "clo": 454, "clos": 455, "cloth": 456, "clus": 457, "co": 458, "coal": 459, "coc": 460, "cock": 461, "cod": 462, "col": 463, "coll": 464, "color": 465, "colored": 466, "com": 467, "comm": 468, "comp": 469, "con": 470, "conc": 471, "cond": 472, "conf": 473, "conn": 474, "const": 475, "cont": 476, "contra": 477, "cop": 478, "cor": 479, "cord": 480, "corn": 481, "cos": 482, "cost": 483, "cot": 484, "coun": 485, "counter": 486, "cour": 487, "cover": 488, "cow": 489, "cr": 490, "cra": 491, "cre": 492, "cred": 493, "crib": 494, "crimin": 495, "cro": 496, "cros": 497, "cross": 498, "crown": 499, "cry": 500, "crypt": 501, "ct": 502, "ction": 503, "cu": 504, "cub": 505, "cul": 506, "cular": 507, "cult": 508, "cum": 509, "cup": 510, "cur": 511, "cus": 512, "cut": 513, "cy": 514, "cyan": 515, "cycl": 516, "cyst": 517, "cyt": 518, "d": 519, "da": 520, "dal": 521, "dale": 522, "dam": 523, "dan": 524, "dar": 525, "day": 526, "de": 527, "dead": 528, "dec": 529, "ded": 530, "deep": 531, "def": 532, "del": 533, "dem": 534, "demon": 535, "den": 536, "dent": 537, "dep": 538, "der": 539, "dered": 540, "des": 541, "det": 542, "dev": 543, "di": 544, "dia": 545, "dial": 546, "dic": 547, "did": 548, "diff": 549, "dig": 550, "dil": 551, "dim": 552, "din": 553, "ding": 554, "dip": 555, "dis": 556, "disc": 557, "dish": 558, "dist": 559, "div": 560, "dle": 561, "do": 562, "doc": 563, "dod": 564, "dog": 565, "dol": 566, "dom": 567, "don": 568, "dor": 569, "double": 570, "down": 571, "dr": 572, "dra": 573, "dre": 574, "dress": 575, "dro": 576, "drop": 577, "dry": 578, "ds": 579, "du": 580, "dur": 581, "dy": 582, "dys": 583, "e": 584, "ea": 585, "ean": 586, "ear": 587, "earth": 588, "ec": 589, "eca": 590, "ece": 591, "ech": 592, "eck": 593, "ect": 594, "ected": 595, "ection": 596, "ectomy": 597, "ector": 598, "ed": 599, "eder": 600, "eding": 601, "edly": 602, "edness": 603, "educ": 604, "ee": 605, "ef": 606, "eff": 607, "eg": 608, "ek": 609, "el": 610, "ela": 611, "eld": 612, "ele": 613, "elec": 614, "elect": 615, "electr": 616, "electro": 617, "eled": 618, "eleg": 619, "eler": 620, "eless": 621, "elet": 622, "elic": 623, "elike": 624, "eling": 625, "ell": 626, "ella": 627, "elle": 628, "elled": 629, "eller": 630, "elling": 631, "ellow": 632, "elo": 633, "els": 634, "ely": 635, "em": 636, "ema": 637, "eman": 638, "emat": 639, "embr": 640, "embry": 641, "eme": 642, "ement": 643, "ements": 644, "emer": 645, "emia": 646, "emic": 647, "emin": 648, "emon": 649, "emp": 650, "empt": 651, "en": 652, "ena": 653, "enc": 654, "ence": 655, "encephal": 656, "ences": 657, "ench": 658, "encies": 659, "ency": 660, "end": 661, "ended": 662, "ender": 663, "ending": 664, "ends": 665, "ene": 666, "ened": 667, "ener": 668, "eness": 669, "enesses": 670, "eng": 671, "enic": 672, "ening": 673, "enn": 674, "ens": 675, "ent": 676, "ental": 677, "enter": 678, "enth": 679, "ential": 680, "ently": 681, "ents": 682, "ep": 683, "eph": 684, "epic": 685, "epig": 686, "epis": 687, "eps": 688, "ept": 689, "equ": 690, "er": 691, "eral": 692, "ere": 693, "ered": 694, "erg": 695, "eric": 696, "eries": 697, "ering": 698, "ern": 699, "ero": 700, "erous": 701, "ers": 702, "ert": 703, "erv": 704, "ery": 705, "es": 706, "esc": 707, "escence": 708, "escent": 709, "ese": 710, "esh": 711, "esis": 712, "ess": 713, "est": 714, "ested": 715, "ester": 716, "esth": 717, "estr": 718, "et": 719, "eta": 720, "etal": 721, "ete": 722, "eted": 723, "eter": 724, "etermin": 725, "eth": 726, "ether": 727, "etic": 728, "etical": 729, "etically": 730, "eting": 731, "ets": 732, "ett": 733, "etta": 734, "ette": 735, "ety": 736, "eu": 737, "eur": 738, "ev": 739, "ever": 740, "evol": 741, "ex": 742, "exc": 743, "exp": 744, "ext": 745, "extr": 746, "extra": 747, "ey": 748, "eye": 749, "eyed": 750, "f": 751, "fa": 752, "fac": 753, "faced": 754, "fact": 755, "fair": 756, "fal": 757, "fall": 758, "fam": 759, "fan": 760, "far": 761, "fast": 762, "fat": 763, "fav": 764, "fe": 765, "fed": 766, "fel": 767, "fer": 768, "fet": 769, "ff": 770, "fi": 771, "fib": 772, "fic": 773, "fid": 774, "field": 775, "fig": 776, "fil": 777, "fin": 778, "fing": 779, "fir": 780, "fire": 781, "fish": 782, "fishes": 783, "fl": 784, "fla": 785, "flag": 786, "flat": 787, "fle": 788, "flex": 789, "flo": 790, "flor": 791, "flow": 792, "flower": 793, "flu": 794, "fluor": 795, "fly": 796, "fo": 797, "fol": 798, "fold": 799, "foot": 800, "footed": 801, "for": 802, "ford": 803, "fore": 804, "form": 805, "fort": 806, "four": 807, "fr": 808, "fra": 809, "fre": 810, "free": 811, "fro": 812, "front": 813, "ft": 814, "fu": 815, "ful": 816, "full": 817, "fully": 818, "fulness": 819, "fum": 820, "fur": 821, "fus": 822, "g": 823, "ga": 824, "gab": 825, "gal": 826, "gall": 827, "gam": 828, "gan": 829, "gang": 830, "gar": 831, "gard": 832, "gas": 833, "gast": 834, "gastro": 835, "ge": 836, "ged": 837, "gel": 838, "gem": 839, "gen": 840, "gener": 841, "gent": 842, "ger": 843, "ges": 844, "gest": 845, "get": 846, "gh": 847, "gi": 848, "gia": 849, "gig": 850, "gil": 851, "gin": 852, "ging": 853, "gl": 854, "gla": 855, "glass": 856, "gle": 857, "glo": 858, "gloss": 859, "glut": 860, "gly": 861, "gn": 862, "go": 863, "god": 864, "gol": 865, "gold": 866, "gon": 867, "good": 868, "gor": 869, "gr": 870, "gra": 871, "gram": 872, "gran": 873, "grand": 874, "graph": 875, "grass": 876, "grat": 877, "grav": 878, "gre": 879, "green": 880, "greg": 881, "gress": 882, "grim": 883, "gro": 884, "ground": 885, "grow": 886, "gu": 887, "guard": 888, "gul": 889, "gum": 890, "gun": 891, "gy": 892, "gym": 893, "gyn": 894, "h": 895, "ha": 896, "hab": 897, "haem": 898, "hag": 899, "hair": 900, "hal": 901, "half": 902, "hall": 903, "ham": 904, "han": 905, "hand": 906, "hap": 907, "har": 908, "hard": 909, "harmon": 910, "hat": 911, "hav": 912, "haw": 913, "hay": 914, "haz": 915, "he": 916, "head": 917, "headed": 918, "hear": 919, "heart": 920, "hearted": 921, "heav": 922, "hed": 923, "hel": 924, "hell": 925, "hem": 926, "hemat": 927, "hen": 928, "hep": 929, "her": 930, "hes": 931, "heter": 932, "hex": 933, "hi": 934, "hib": 935, "hier": 936, "high": 937, "hil": 938, "hip": 939, "hist": 940, "hn": 941, "ho": 942, "hob": 943, "hod": 944, "hog": 945, "hol": 946, "hold": 947, "hole": 948, "hom": 949, "home": 950, "hon": 951, "hood": 952, "hook": 953, "hop": 954, "hor": 955, "horn": 956, "hot": 957, "hous": 958, "house": 959, "how": 960, "hs": 961, "hu": 962, "hum": 963, "human": 964, "hun": 965, "hur": 966, "hy": 967, "hyd": 968, "hydr": 969, "hydro": 970, "hyl": 971, "hyp": 972, "hyper": 973, "hypo": 974, "hyster": 975, "i": 976, "ia": 977, "iable": 978, "iac": 979, "iaceae": 980, "iaceous": 981, "ial": 982, "iality": 983, "ially": 984, "ian": 985, "ianism": 986, "ians": 987, "iant": 988, "iar": 989, "ias": 990, "iast": 991, "iat": 992, "iate": 993, "iated": 994, "iating": 995, "iation": 996, "ib": 997, "iber": 998, "ibility": 999, "ibl": 1000, "ible": 1001, "ibleness": 1002, "ibly": 1003, "ibr": 1004, "ic": 1005, "ica": 1006, "ical": 1007, "ically": 1008, "icalness": 1009, "icate": 1010, "ice": 1011, "iced": 1012, "ich": 1013, "ichthy": 1014, "icity": 1015, "ick": 1016, "ico": 1017, "icon": 1018, "ics": 1019, "ict": 1020, "iction": 1021, "icul": 1022, "icular": 1023, "id": 1024, "ida": 1025, "idae": 1026, "idal": 1027, "ide": 1028, "idea": 1029, "idean": 1030, "ided": 1031, "ident": 1032, "ider": 1033, "ides": 1034, "idi": 1035, "idia": 1036, "idine": 1037, "iding": 1038, "idium": 1039, "idly": 1040, "ids": 1041, "ie": 1042, "ied": 1043, "ief": 1044, "ield": 1045, "ien": 1046, "ience": 1047, "ient": 1048, "ier": 1049, "iers": 1050, "ies": 1051, "iest": 1052, "iet": 1053, "iev": 1054, "if": 1055, "ife": 1056, "ifer": 1057, "iferous": 1058, "iff": 1059, "iffer": 1060, "ific": 1061, "ification": 1062, "ified": 1063, "ifies": 1064, "iform": 1065, "ift": 1066, "ify": 1067, "ifying": 1068, "ig": 1069, "igen": 1070, "iger": 1071, "igh": 1072, "ight": 1073, "ighted": 1074, "ign": 1075, "igu": 1076, "iidae": 1077, "ik": 1078, "ike": 1079, "il": 1080, "ild": 1081, "ile": 1082, "iled": 1083, "ili": 1084, "ilic": 1085, "iling": 1086, "ilities": 1087, "ility": 1088, "ill": 1089, "illa": 1090, "ille": 1091, "illed": 1092, "illing": 1093, "ilo": 1094, "ils": 1095, "ilt": 1096, "ily": 1097, "im": 1098, "ima": 1099, "ime": 1100, "iment": 1101, "imer": 1102, "imet": 1103, "imin": 1104, "imm": 1105, "immun": 1106, "imp": 1107, "imper": 1108, "in": 1109, "ina": 1110, "inae": 1111, "inal": 1112, "inate": 1113, "inated": 1114, "ination": 1115, "inc": 1116, "incon": 1117, "ind": 1118, "inder": 1119, "indic": 1120, "ine": 1121, "ined": 1122, "iner": 1123, "ines": 1124, "iness": 1125, "inesses": 1126, "inf": 1127, "ing": 1128, "ingly": 1129, "ingness": 1130, "ings": 1131, "ini": 1132, "inic": 1133, "ining": 1134, "init": 1135, "ink": 1136, "inn": 1137, "inned": 1138, "ino": 1139, "inous": 1140, "ins": 1141, "inst": 1142, "int": 1143, "inted": 1144, "inter": 1145, "intr": 1146, "intra": 1147, "inu": 1148, "inv": 1149, "io": 1150, "ioc": 1151, "iod": 1152, "iol": 1153, "ion": 1154, "ional": 1155, "ioned": 1156, "ionist": 1157, "ions": 1158, "ior": 1159, "ios": 1160, "iot": 1161, "ious": 1162, "iously": 1163, "iousness": 1164, "ip": 1165, "ipar": 1166, "iped": 1167, "iph": 1168, "ipp": 1169, "ipped": 1170, "ips": 1171, "ipt": 1172, "iqu": 1173, "ir": 1174, "ira": 1175, "ird": 1176, "ire": 1177, "ired": 1178, "irl": 1179, "iro": 1180, "iron": 1181, "irre": 1182, "irt": 1183, "is": 1184, "isation": 1185, "isc": 1186, "ise": 1187, "ised": 1188, "iser": 1189, "ises": 1190, "ish": 1191, "ished": 1192, "ishing": 1193, "ishly": 1194, "ishness": 1195, "ising": 1196, "ism": 1197, "isms": 1198, "ison": 1199, "iss": 1200, "ist": 1201, "ister": 1202, "istic": 1203, "istical": 1204, "istically": 1205, "ists": 1206, "it": 1207, "ita": 1208, "itable": 1209, "ital": 1210, "itan": 1211, "itate": 1212, "itation": 1213, "itch": 1214, "ite": 1215, "ited": 1216, "iter": 1217, "ites": 1218, "ith": 1219, "itic": 1220, "ities": 1221, "iting": 1222, "ition": 1223, "itis": 1224, "itive": 1225, "itor": 1226, "its": 1227, "itt": 1228, "itter": 1229, "itting": 1230, "itut": 1231, "ity": 1232, "itz": 1233, "ium": 1234, "iums": 1235, "ius": 1236, "iv": 1237, "ival": 1238, "ive": 1239, "ively": 1240, "iveness": 1241, "iver": 1242, "ivers": 1243, "ives": 1244, "iving": 1245, "ivity": 1246, "ix": 1247, "iz": 1248, "izable": 1249, "ization": 1250, "izations": 1251, "ize": 1252, "ized": 1253, "izer": 1254, "izers": 1255, "izes": 1256, "izing": 1257, "izz": 1258, "j": 1259, "ja": 1260, "jac": 1261, "jack": 1262, "jam": 1263, "jan": 1264, "jar": 1265, "je": 1266, "ject": 1267, "jer": 1268, "jo": 1269, "ju": 1270, "jud": 1271, "judic": 1272, "jug": 1273, "jur": 1274, "just": 1275, "k": 1276, "ka": 1277, "kal": 1278, "kar": 1279, "kat": 1280, "ke": 1281, "ked": 1282, "kee": 1283, "kel": 1284, "ken": 1285, "ker": 1286, "ket": 1287, "key": 1288, "kh": 1289, "ki": 1290, "kil": 1291, "kill": 1292, "kin": 1293, "kind": 1294, "king": 1295, "kir": 1296, "kn": 1297, "ko": 1298, "ks": 1299, "ky": 1300, "l": 1301, "la": 1302, "lab": 1303, "lac": 1304, "lad": 1305, "lam": 1306, "lan": 1307, "land": 1308, "lap": 1309, "lar": 1310, "las": 1311, "last": 1312, "lastic": 1313, "lat": 1314, "lav": 1315, "law": 1316, "lay": 1317, "ld": 1318, "le": 1319, "leaf": 1320, "leaved": 1321, "lect": 1322, "led": 1323, "leg": 1324, "lem": 1325, "len": 1326, "lept": 1327, "ler": 1328, "lers": 1329, "les": 1330, "less": 1331, "lessly": 1332, "lessness": 1333, "let": 1334, "lets": 1335, "leuc": 1336, "lex": 1337, "ley": 1338, "li": 1339, "lib": 1340, "lic": 1341, "lie": 1342, "lier": 1343, "lif": 1344, "lig": 1345, "light": 1346, "lik": 1347, "like": 1348, "lim": 1349, "lin": 1350, "line": 1351, "liness": 1352, "ling": 1353, "lion": 1354, "lip": 1355, "lit": 1356, "lith": 1357, "liv": 1358, "lo": 1359, "lob": 1360, "loc": 1361, "lock": 1362, "log": 1363, "loid": 1364, "lon": 1365, "long": 1366, "looking": 1367, "lor": 1368, "los": 1369, "loss": 1370, "lot": 1371, "low": 1372, "loy": 1373, "ls": 1374, "lu": 1375, "luc": 1376, "lum": 1377, "lut": 1378, "ly": 1379, "lym": 1380, "lymph": 1381, "lyn": 1382, "m": 1383, "ma": 1384, "mac": 1385, "mach": 1386, "macro": 1387, "mad": 1388, "mag": 1389, "magn": 1390, "mak": 1391, "maker": 1392, "making": 1393, "mal": 1394, "mam": 1395, "man": 1396, "mand": 1397, "mann": 1398, "mant": 1399, "many": 1400, "mar": 1401, "mark": 1402, "mart": 1403, "mas": 1404, "mass": 1405, "mast": 1406, "master": 1407, "mat": 1408, "matic": 1409, "max": 1410, "may": 1411, "mc": 1412, "me": 1413, "med": 1414, "meg": 1415, "mel": 1416, "mem": 1417, "men": 1418, "ment": 1419, "ments": 1420, "mer": 1421, "mes": 1422, "met": 1423, "meter": 1424, "mi": 1425, "mia": 1426, "mic": 1427, "micro": 1428, "mid": 1429, "mil": 1430, "mill": 1431, "min": 1432, "mind": 1433, "minded": 1434, "ming": 1435, "mir": 1436, "mis": 1437, "miss": 1438, "mist": 1439, "mit": 1440, "mix": 1441, "mo": 1442, "mob": 1443, "mod": 1444, "mol": 1445, "mon": 1446, "monger": 1447, "mont": 1448, "moon": 1449, "mor": 1450, "morph": 1451, "mort": 1452, "mos": 1453, "most": 1454, "mot": 1455, "mous": 1456, "mouth": 1457, "ms": 1458, "mu": 1459, "muc": 1460, "mud": 1461, "mul": 1462, "mult": 1463, "multip": 1464, "mur": 1465, "mus": 1466, "mut": 1467, "my": 1468, "myel": 1469, "myr": 1470, "n": 1471, "na": 1472, "nal": 1473, "nar": 1474, "nas": 1475, "nat": 1476, "natur": 1477, "nav": 1478, "ne": 1479, "nec": 1480, "neck": 1481, "ned": 1482, "need": 1483, "neg": 1484, "neph": 1485, "ner": 1486, "nes": 1487, "ness": 1488, "nesses": 1489, "net": 1490, "neum": 1491, "neuro": 1492, "new": 1493, "ney": 1494, "ni": 1495, "nic": 1496, "night": 1497, "nin": 1498, "nit": 1499, "no": 1500, "nob": 1501, "nom": 1502, "non": 1503, "noncon": 1504, "nonex": 1505, "nonpro": 1506, "nonre": 1507, "nor": 1508, "nos": 1509, "not": 1510, "nov": 1511, "now": 1512, "num": 1513, "nut": 1514, "ny": 1515, "o": 1516, "ob": 1517, "obi": 1518, "obia": 1519, "object": 1520, "oblast": 1521, "obranch": 1522, "oc": 1523, "ocal": 1524, "ocar": 1525, "ocarp": 1526, "occ": 1527, "oce": 1528, "ocele": 1529, "ocent": 1530, "ocephal": 1531, "ocer": 1532, "och": 1533, "ock": 1534, "oco": 1535, "ocrat": 1536, "oct": 1537, "ocy": 1538, "ocyst": 1539, "ocyte": 1540, "od": 1541, "ode": 1542, "oder": 1543, "odes": 1544, "odon": 1545, "odont": 1546, "ody": 1547, "oe": 1548, "oec": 1549, "oed": 1550, "oes": 1551, "of": 1552, "off": 1553, "og": 1554, "ogam": 1555, "oge": 1556, "ogen": 1557, "ogenesis": 1558, "ogenetic": 1559, "ogenic": 1560, "ogenous": 1561, "ogn": 1562, "ogon": 1563, "ogram": 1564, "ograph": 1565, "ographer": 1566, "ographic": 1567, "ographical": 1568, "ographically": 1569, "ography": 1570, "oi": 1571, "oid": 1572, "oidal": 1573, "oil": 1574, "ok": 1575, "oking": 1576, "ol": 1577, "ola": 1578, "olar": 1579, "olat": 1580, "old": 1581, "ole": 1582, "oles": 1583, "olic": 1584, "olig": 1585, "olite": 1586, "olith": 1587, "oll": 1588, "olog": 1589, "ologic": 1590, "ological": 1591, "ologically": 1592, "ologies": 1593, "ologist": 1594, "ology": 1595, "ols": 1596, "oly": 1597, "om": 1598, "oma": 1599, "omal": 1600, "oman": 1601, "omania": 1602, "omat": 1603, "omata": 1604, "omatic": 1605, "omatous": 1606, "omb": 1607, "ome": 1608, "omed": 1609, "omen": 1610, "omer": 1611, "omet": 1612, "ometer": 1613, "ometric": 1614, "ometry": 1615, "omic": 1616, "omies": 1617, "omin": 1618, "omn": 1619, "omorph": 1620, "omorphic": 1621, "oms": 1622, "omy": 1623, "on": 1624, "ona": 1625, "ond": 1626, "one": 1627, "oned": 1628, "ones": 1629, "oney": 1630, "ong": 1631, "onia": 1632, "onian": 1633, "onic": 1634, "onom": 1635, "ons": 1636, "ont": 1637, "ony": 1638, "oo": 1639, "ool": 1640, "oon": 1641, "op": 1642, "opath": 1643, "opathy": 1644, "ope": 1645, "oped": 1646, "open": 1647, "oper": 1648, "oph": 1649, "ophag": 1650, "ophil": 1651, "ophobia": 1652, "ophor": 1653, "ophore": 1654, "ophthal": 1655, "ophy": 1656, "ophyll": 1657, "ophys": 1658, "oplas": 1659, "oplast": 1660, "opod": 1661, "opol": 1662, "ops": 1663, "opt": 1664, "opter": 1665, "opy": 1666, "or": 1667, "ora": 1668, "oral": 1669, "orch": 1670, "ord": 1671, "ore": 1672, "ored": 1673, "ores": 1674, "organ": 1675, "orial": 1676, "oric": 1677, "oring": 1678, "orm": 1679, "orn": 1680, "ornith": 1681, "orous": 1682, "orph": 1683, "orr": 1684, "ors": 1685, "ort": 1686, "orth": 1687, "ory": 1688, "os": 1689, "osaur": 1690, "oscop": 1691, "oscope": 1692, "oscopy": 1693, "ose": 1694, "oses": 1695, "osis": 1696, "osity": 1697, "osoph": 1698, "osp": 1699, "osph": 1700, "ospor": 1701, "oss": 1702, "ost": 1703, "oste": 1704, "oster": 1705, "ot": 1706, "ote": 1707, "oted": 1708, "oter": 1709, "oth": 1710, "other": 1711, "otic": 1712, "otomy": 1713, "otrop": 1714, "ots": 1715, "ott": 1716, "otted": 1717, "oty": 1718, "otype": 1719, "ou": 1720, "ound": 1721, "our": 1722, "ous": 1723, "ouse": 1724, "ously": 1725, "ousness": 1726, "out": 1727, "outs": 1728, "ov": 1729, "ove": 1730, "over": 1731, "ow": 1732, "ower": 1733, "own": 1734, "ox": 1735, "oxid": 1736, "oxy": 1737, "oy": 1738, "oz": 1739, "ozo": 1740, "p": 1741, "pa": 1742, "pac": 1743, "pack": 1744, "pad": 1745, "pal": 1746, "palae": 1747, "pale": 1748, "pall": 1749, "pan": 1750, "pant": 1751, "pap": 1752, "par": 1753, "paras": 1754, "part": 1755, "pas": 1756, "pass": 1757, "passion": 1758, "past": 1759, "pat": 1760, "path": 1761, "pay": 1762, "pe": 1763, "pear": 1764, "pec": 1765, "pect": 1766, "ped": 1767, "pel": 1768, "pen": 1769, "penn": 1770, "pens": 1771, "pent": 1772, "pep": 1773, "per": 1774, "pered": 1775, "perf": 1776, "peri": 1777, "peric": 1778, "pers": 1779, "person": 1780, "pes": 1781, "pet": 1782, "ph": 1783, "phal": 1784, "phan": 1785, "phant": 1786, "phar": 1787, "phas": 1788, "phen": 1789, "phil": 1790, "phon": 1791, "phor": 1792, "phosph": 1793, "phot": 1794, "phy": 1795, "phyl": 1796, "phyll": 1797, "phys": 1798, "phyt": 1799, "pi": 1800, "pic": 1801, "pick": 1802, "pid": 1803, "pier": 1804, "pig": 1805, "pil": 1806, "pin": 1807, "ping": 1808, "pip": 1809, "pir": 1810, "pit": 1811, "pl": 1812, "pla": 1813, "plac": 1814, "plan": 1815, "plant": 1816, "plat": 1817, "plate": 1818, "play": 1819, "ple": 1820, "pleas": 1821, "pled": 1822, "plex": 1823, "plic": 1824, "plum": 1825, "pneum": 1826, "po": 1827, "pod": 1828, "point": 1829, "pol": 1830, "poly": 1831, "pom": 1832, "pon": 1833, "pop": 1834, "por": 1835, "port": 1836, "pos": 1837, "position": 1838, "post": 1839, "pot": 1840, "pound": 1841, "pr": 1842, "pra": 1843, "pract": 1844, "pre": 1845, "prec": 1846, "precon": 1847, "pred": 1848, "predis": 1849, "preh": 1850, "prehens": 1851, "prel": 1852, "prer": 1853, "pres": 1854, "present": 1855, "press": 1856, "pret": 1857, "prim": 1858, "pro": 1859, "prod": 1860, "produc": 1861, "prof": 1862, "proof": 1863, "prop": 1864, "pros": 1865, "prot": 1866, "prov": 1867, "ps": 1868, "pse": 1869, "pseud": 1870, "pseudo": 1871, "psych": 1872, "pt": 1873, "pter": 1874, "pu": 1875, "pul": 1876, "puls": 1877, "pup": 1878, "pur": 1879, "put": 1880, "py": 1881, "pyro": 1882, "q": 1883, "qu": 1884, "quad": 1885, "qual": 1886, "quarter": 1887, "quas": 1888, "quasi": 1889, "que": 1890, "quer": 1891, "quest": 1892, "quick": 1893, "quin": 1894, "quis": 1895, "r": 1896, "ra": 1897, "rab": 1898, "rac": 1899, "race": 1900, "rach": 1901, "rack": 1902, "ract": 1903, "rad": 1904, "radi": 1905, "rag": 1906, "rain": 1907, "ral": 1908, "ram": 1909, "ran": 1910, "ranch": 1911, "rant": 1912, "rap": 1913, "raph": 1914, "ras": 1915, "rat": 1916, "rate": 1917, "ration": 1918, "rav": 1919, "raw": 1920, "ray": 1921, "re": 1922, "read": 1923, "real": 1924, "rec": 1925, "recon": 1926, "rect": 1927, "red": 1928, "ree": 1929, "reen": 1930, "ref": 1931, "reg": 1932, "rein": 1933, "rel": 1934, "rem": 1935, "ren": 1936, "rene": 1937, "rent": 1938, "rep": 1939, "rer": 1940, "res": 1941, "resp": 1942, "ress": 1943, "rest": 1944, "ret": 1945, "retro": 1946, "rev": 1947, "rew": 1948, "rh": 1949, "rhe": 1950, "rhin": 1951, "rhiz": 1952, "rhy": 1953, "ri": 1954, "ria": 1955, "rian": 1956, "rib": 1957, "ric": 1958, "rical": 1959, "rically": 1960, "rich": 1961, "rick": 1962, "rid": 1963, "rie": 1964, "ries": 1965, "rif": 1966, "rig": 1967, "right": 1968, "ril": 1969, "rim": 1970, "rin": 1971, "ring": 1972, "rip": 1973, "ris": 1974, "rist": 1975, "rit": 1976, "riv": 1977, "rix": 1978, "ro": 1979, "rock": 1980, "rod": 1981, "rog": 1982, "rograph": 1983, "roid": 1984, "rol": 1985, "rolog": 1986, "rom": 1987, "roman": 1988, "rome": 1989, "ron": 1990, "room": 1991, "root": 1992, "rop": 1993, "roph": 1994, "ror": 1995, "ros": 1996, "rosis": 1997, "rost": 1998, "rot": 1999, "rough": 2000, "round": 2001, "rous": 2002, "row": 2003, "rown": 2004, "roy": 2005, "ru": 2006, "rub": 2007, "rud": 2008, "rug": 2009, "rum": 2010, "run": 2011, "rup": 2012, "rupt": 2013, "rus": 2014, "rust": 2015, "ry": 2016, "s": 2017, "sa": 2018, "sab": 2019, "sac": 2020, "sag": 2021, "sal": 2022, "salt": 2023, "sam": 2024, "san": 2025, "sand": 2026, "sap": 2027, "sar": 2028, "sat": 2029, "sav": 2030, "saw": 2031, "sc": 2032, "scal": 2033, "scar": 2034, "sch": 2035, "school": 2036, "scler": 2037, "sco": 2038, "scop": 2039, "scr": 2040, "scrib": 2041, "se": 2042, "sec": 2043, "sed": 2044, "see": 2045, "seed": 2046, "sel": 2047, "self": 2048, "sem": 2049, "semi": 2050, "semic": 2051, "semip": 2052, "semis": 2053, "sen": 2054, "sens": 2055, "sent": 2056, "sep": 2057, "sept": 2058, "sequ": 2059, "ser": 2060, "serv": 2061, "ses": 2062, "sess": 2063, "set": 2064, "sever": 2065, "sex": 2066, "sh": 2067, "shaped": 2068, "shar": 2069, "she": 2070, "shell": 2071, "sher": 2072, "ship": 2073, "sho": 2074, "shop": 2075, "short": 2076, "sick": 2077, "sid": 2078, "side": 2079, "sider": 2080, "sign": 2081, "sil": 2082, "silver": 2083, "sim": 2084, "sin": 2085, "sing": 2086, "six": 2087, "sk": 2088, "sky": 2089, "sl": 2090, "sla": 2091, "sle": 2092, "slip": 2093, "sm": 2094, "small": 2095, "sman": 2096, "smo": 2097, "smooth": 2098, "sn": 2099, "snow": 2100, "so": 2101, "soc": 2102, "soft": 2103, "sol": 2104, "solid": 2105, "som": 2106, "some": 2107, "son": 2108, "sor": 2109, "soul": 2110, "sound": 2111, "sp": 2112, "spar": 2113, "spe": 2114, "spec": 2115, "spect": 2116, "sper": 2117, "sph": 2118, "spin": 2119, "spir": 2120, "spirit": 2121, "spl": 2122, "spor": 2123, "spr": 2124, "spring": 2125, "squ": 2126, "ss": 2127, "st": 2128, "stall": 2129, "stand": 2130, "star": 2131, "stat": 2132, "ste": 2133, "stead": 2134, "stem": 2135, "sten": 2136, "step": 2137, "ster": 2138, "stere": 2139, "stick": 2140, "sto": 2141, "stock": 2142, "stom": 2143, "ston": 2144, "stone": 2145, "str": 2146, "stra": 2147, "stre": 2148, "stro": 2149, "struct": 2150, "stud": 2151, "styl": 2152, "su": 2153, "sub": 2154, "subl": 2155, "subst": 2156, "suc": 2157, "suff": 2158, "sul": 2159, "sulf": 2160, "sulph": 2161, "sum": 2162, "sun": 2163, "sup": 2164, "super": 2165, "supra": 2166, "sur": 2167, "sus": 2168, "sville": 2169, "sw": 2170, "swe": 2171, "sweet": 2172, "sy": 2173, "sych": 2174, "sym": 2175, "syn": 2176, "t": 2177, "ta": 2178, "tab": 2179, "tail": 2180, "tain": 2181, "tal": 2182, "tam": 2183, "tan": 2184, "tap": 2185, "tar": 2186, "tax": 2187, "te": 2188, "tear": 2189, "ted": 2190, "tedly": 2191, "tedness": 2192, "tel": 2193, "tele": 2194, "tem": 2195, "ten": 2196, "ter": 2197, "tered": 2198, "termin": 2199, "tern": 2200, "ters": 2201, "tes": 2202, "test": 2203, "tet": 2204, "tetra": 2205, "th": 2206, "tha": 2207, "thal": 2208, "the": 2209, "ther": 2210, "therm": 2211, "thes": 2212, "thesia": 2213, "thick": 2214, "thir": 2215, "tho": 2216, "thor": 2217, "thr": 2218, "thre": 2219, "three": 2220, "thro": 2221, "thy": 2222, "ti": 2223, "tic": 2224, "tick": 2225, "tight": 2226, "til": 2227, "tim": 2228, "time": 2229, "tin": 2230, "ting": 2231, "tit": 2232, "to": 2233, "tol": 2234, "tom": 2235, "ton": 2236, "tongu": 2237, "tooth": 2238, "top": 2239, "tor": 2240, "tot": 2241, "tow": 2242, "town": 2243, "tox": 2244, "tr": 2245, "tra": 2246, "tract": 2247, "tran": 2248, "trans": 2249, "tre": 2250, "tress": 2251, "tri": 2252, "trib": 2253, "tric": 2254, "trich": 2255, "trig": 2256, "trip": 2257, "tro": 2258, "trol": 2259, "trop": 2260, "try": 2261, "ts": 2262, "tu": 2263, "tub": 2264, "tuber": 2265, "tum": 2266, "tur": 2267, "turn": 2268, "tw": 2269, "twic": 2270, "twice": 2271, "ty": 2272, "u": 2273, "ual": 2274, "ually": 2275, "ub": 2276, "uber": 2277, "ubl": 2278, "uble": 2279, "uc": 2280, "uch": 2281, "uck": 2282, "ucle": 2283, "uct": 2284, "uction": 2285, "ud": 2286, "ude": 2287, "ue": 2288, "ued": 2289, "ues": 2290, "uff": 2291, "ug": 2292, "ugh": 2293, "ught": 2294, "uit": 2295, "uk": 2296, "ul": 2297, "ula": 2298, "ular": 2299, "ulate": 2300, "ulated": 2301, "ulating": 2302, "ulation": 2303, "ule": 2304, "ull": 2305, "ulous": 2306, "ulph": 2307, "uls": 2308, "ult": 2309, "ultra": 2310, "um": 2311, "umb": 2312, "ument": 2313, "umin": 2314, "ump": 2315, "ums": 2316, "un": 2317, "una": 2318, "unad": 2319, "unal": 2320, "unb": 2321, "unc": 2322, "unch": 2323, "unco": 2324, "uncom": 2325, "uncon": 2326, "unct": 2327, "und": 2328, "unde": 2329, "under": 2330, "unders": 2331, "undis": 2332, "une": 2333, "unex": 2334, "unf": 2335, "ung": 2336, "unh": 2337, "unic": 2338, "unim": 2339, "unin": 2340, "unk": 2341, "unl": 2342, "unm": 2343, "unn": 2344, "unp": 2345, "unper": 2346, "unpro": 2347, "unre": 2348, "uns": 2349, "unsh": 2350, "unsp": 2351, "unst": 2352, "unt": 2353, "unw": 2354, "uous": 2355, "up": 2356, "ups": 2357, "ur": 2358, "ura": 2359, "ural": 2360, "uran": 2361, "ure": 2362, "ured": 2363, "ures": 2364, "urg": 2365, "uria": 2366, "uric": 2367, "uring": 2368, "urn": 2369, "uro": 2370, "urop": 2371, "urous": 2372, "urs": 2373, "us": 2374, "usc": 2375, "use": 2376, "uses": 2377, "ush": 2378, "uss": 2379, "ust": 2380, "ustr": 2381, "ut": 2382, "ute": 2383, "uter": 2384, "uth": 2385, "ution": 2386, "utt": 2387, "utter": 2388, "uv": 2389, "ux": 2390, "v": 2391, "va": 2392, "vac": 2393, "vag": 2394, "val": 2395, "van": 2396, "var": 2397, "vari": 2398, "vas": 2399, "ve": 2400, "ved": 2401, "vel": 2402, "ven": 2403, "vent": 2404, "ver": 2405, "vers": 2406, "vert": 2407, "ves": 2408, "vest": 2409, "vet": 2410, "vi": 2411, "vic": 2412, "vict": 2413, "vie": 2414, "vill": 2415, "ville": 2416, "vin": 2417, "ving": 2418, "viol": 2419, "vir": 2420, "vis": 2421, "vit": 2422, "viv": 2423, "vo": 2424, "voc": 2425, "vol": 2426, "vul": 2427, "w": 2428, "wa": 2429, "wal": 2430, "walk": 2431, "wall": 2432, "wan": 2433, "war": 2434, "ward": 2435, "wards": 2436, "ware": 2437, "wash": 2438, "watch": 2439, "water": 2440, "wax": 2441, "way": 2442, "ways": 2443, "we": 2444, "wear": 2445, "wed": 2446, "weed": 2447, "wel": 2448, "well": 2449, "wer": 2450, "west": 2451, "wh": 2452, "whe": 2453, "whit": 2454, "white": 2455, "wick": 2456, "wid": 2457, "wig": 2458, "wil": 2459, "will": 2460, "win": 2461, "wind": 2462, "wing": 2463, "winged": 2464, "winter": 2465, "wise": 2466, "wit": 2467, "with": 2468, "wn": 2469, "wo": 2470, "wol": 2471, "woman": 2472, "won": 2473, "wood": 2474, "wool": 2475, "wor": 2476, "word": 2477, "work": 2478, "works": 2479, "world": 2480, "worm": 2481, "wort": 2482, "worth": 2483, "wr": 2484, "wre": 2485, "ws": 2486, "wy": 2487, "x": 2488, "xanth": 2489, "xen": 2490, "xy": 2491, "xyl": 2492, "y": 2493, "ya": 2494, "yard": 2495, "ye": 2496, "yed": 2497, "yellow": 2498, "yer": 2499, "yg": 2500, "ying": 2501, "yl": 2502, "yle": 2503, "ylic": 2504, "yll": 2505, "yllab": 2506, "ym": 2507, "yn": 2508, "ynam": 2509, "yo": 2510, "ys": 2511, "ysis": 2512, "z": 2513, "za": 2514, "ze": 2515, "zed": 2516, "zen": 2517, "zer": 2518, "zes": 2519, "zing": 2520, "zo": 2521, "zon": 2522, "zy": 2523, "zyg": 2524, "zz": 2525, "_": 2526}