{"a": 0, "ab": 1, "ability": 2, "abl": 3, "able": 4, "ableness": 5, "ably": 6, "ac": 7, "acc": 8, "ace": 9, "aceae": 10, "aceous": 11, "ach": 12, "ack": 13, "act": 14, "ad": 15, "add": 16, "ade": 17, "ae": 18, "aer": 19, "af": 20, "aff": 21, "ag": 22, "age": 23, "agn": 24, "ah": 25, "ail": 26, "air": 27, "ak": 28, "al": 29, "ale": 30, "alk": 31, "all": 32, "ally": 33, "als": 34, "am": 35, "amb": 36, "an": 37, "ana": 38, "anc": 39, "ance": 40, "anch": 41, "and": 42, "ane": 43, "ang": 44, "ank": 45, "ann": 46, "ans": 47, "ant": 48, "anth": 49, "anti": 50, "ap": 51, "aph": 52, "ar": 53, "arch": 54, "ard": 55, "are": 56, "ari": 57, "arian": 58, "ars": 59, "art": 60, "ary": 61, "as": 62, "ase": 63, "ash": 64, "ass": 65, "ast": 66, "aster": 67, "at": 68, "ate": 69, "ated": 70, "ater": 71, "ates": 72, "ath": 73, "ather": 74, "atic": 75, "ating": 76, "ation": 77, "ational": 78, "ations": 79, "ative": 80, "ator": 81, "atory": 82, "att": 83, "atur": 84, "au": 85, "aur": 86, "aut": 87, "av": 88, "aw": 89, "ax": 90, "ay": 91, "az": 92, "b": 93, "ba": 94, "back": 95, "bal": 96, "bar": 97, "bas": 98, "be": 99, "bed": 100, "bel": 101, "ben": 102, "ber": 103, "bes": 104, "bi": 105, "bit": 106, "bl": 107, "ble": 108, "bo": 109, "bol": 110, "bon": 111, "bor": 112, "br": 113, "bra": 114, "bre": 115, "bro": 116, "bu": 117, "bur": 118, "burg": 119, "but": 120, "by": 121, "c": 122, "ca": 123, "cal": 124, "cam": 125, "can": 126, "cap": 127, "car": 128, "cat": 129, "ce": 130, "cent": 131, "cer": 132, "ch": 133, "char": 134, "che": 135, "cin": 136, "cir": 137, "ck": 138, "cl": 139, "cle": 140, "clo": 141, "co": 142, "col": 143, "com": 144, "comm": 145, "con": 146, "cont": 147, "cop": 148, "cor": 149, "coun": 150, "counter": 151, "cr": 152, "cra": 153, "cre": 154, "ct": 155, "cul": 156, "cum": 157, "cur": 158, "cut": 159, "cy": 160, "d": 161, "da": 162, "de": 163, "dec": 164, "del": 165, "dem": 166, "den": 167, "dep": 168, "der": 169, "des": 170, "di": 171, "dis": 172, "do": 173, "dom": 174, "dr": 175, "dra": 176, "dro": 177, "dy": 178, "e": 179, "ear": 180, "ec": 181, "eck": 182, "ect": 183, "ed": 184, "edly": 185, "edness": 186, "ee": 187, "ek": 188, "el": 189, "eld": 190, "ele": 191, "elect": 192, "eless": 193, "ell": 194, "els": 195, "ely": 196, "em": 197, "ement": 198, "en": 199, "enc": 200, "ence": 201, "ency": 202, "end": 203, "ene": 204, "eness": 205, "eng": 206, "enn": 207, "ens": 208, "ent": 209, "ently": 210, "ep": 211, "ept": 212, "equ": 213, "er": 214, "ere": 215, "ered": 216, "erous": 217, "ers": 218, "ery": 219, "es": 220, "esh": 221, "esis": 222, "ess": 223, "est": 224, "et": 225, "eter": 226, "eth": 227, "etic": 228, "ets": 229, "ett": 230, "ette": 231, "ev": 232, "ex": 233, "ey": 234, "f": 235, "fac": 236, "far": 237, "fe": 238, "fer": 239, "ff": 240, "fin": 241, "fish": 242, "fl": 243, "fle": 244, "flu": 245, "fo": 246, "foot": 247, "for": 248, "form": 249, "fr": 250, "fra": 251, "ft": 252, "ful": 253, "g": 254, "ga": 255, "gal": 256, "gan": 257, "gar": 258, "ge": 259, "ged": 260, "gen": 261, "ger": 262, "ging": 263, "gl": 264, "go": 265, "gon": 266, "gr": 267, "gra": 268, "gre": 269, "gro": 270, "gu": 271, "gy": 272, "h": 273, "ha": 274, "hal": 275, "half": 276, "ham": 277, "hand": 278, "har": 279, "he": 280, "head": 281, "hel": 282, "hem": 283, "her": 284, "ho": 285, "hol": 286, "hom": 287, "hous": 288, "hum": 289, "hy": 290, "hydro": 291, "hyp": 292, "hyper": 293, "i": 294, "ia": 295, "iac": 296, "ial": 297, "ially": 298, "ian": 299, "ias": 300, "iate": 301, "ib": 302, "ible": 303, "ic": 304, "ical": 305, "ically": 306, "ice": 307, "ich": 308, "ick": 309, "ics": 310, "ict": 311, "id": 312, "idae": 313, "ide": 314, "ie": 315, "ied": 316, "ient": 317, "ier": 318, "ies": 319, "iest": 320, "if": 321, "iferous": 322, "iff": 323, "ific": 324, "ified": 325, "iform": 326, "ify": 327, "ig": 328, "igh": 329, "ight": 330, "ign": 331, "ik": 332, "ike": 333, "il": 334, "ile": 335, "ility": 336, "ill": 337, "ille": 338, "ily": 339, "im": 340, "in": 341, "ina": 342, "inal": 343, "inc": 344, "ind": 345, "ine": 346, "ined": 347, "ines": 348, "iness": 349, "inf": 350, "ing": 351, "ingly": 352, "ings": 353, "ink": 354, "inn": 355, "ins": 356, "int": 357, "inter": 358, "io": 359, "ion": 360, "ional": 361, "ions": 362, "ious": 363, "iously": 364, "iousness": 365, "ip": 366, "iph": 367, "ir": 368, "ird": 369, "ire": 370, "is": 371, "ise": 372, "ised": 373, "ish": 374, "ising": 375, "ism": 376, "iss": 377, "ist": 378, "istic": 379, "ists": 380, "it": 381, "ital": 382, "itch": 383, "ite": 384, "iter": 385, "ith": 386, "itic": 387, "ities": 388, "ition": 389, "itis": 390, "itt": 391, "ity": 392, "ium": 393, "iv": 394, "ive": 395, "ively": 396, "iveness": 397, "ix": 398, "iz": 399, "ization": 400, "ize": 401, "ized": 402, "izes": 403, "izing": 404, "j": 405, "ject": 406, "jo": 407, "k": 408, "ke": 409, "ker": 410, "kn": 411, "l": 412, "la": 413, "lam": 414, "land": 415, "lar": 416, "last": 417, "lav": 418, "ld": 419, "le": 420, "led": 421, "leg": 422, "ler": 423, "les": 424, "less": 425, "let": 426, "ley": 427, "li": 428, "like": 429, "lim": 430, "lin": 431, "ling": 432, "lo": 433, "lor": 434, "low": 435, "ly": 436, "m": 437, "ma": 438, "mac": 439, "mak": 440, "mal": 441, "man": 442, "mar": 443, "mat": 444, "me": 445, "med": 446, "mel": 447, "men": 448, "ment": 449, "mer": 450, "mes": 451, "met": 452, "mic": 453, "micro": 454, "mid": 455, "mil": 456, "min": 457, "mis": 458, "mo": 459, "mon": 460, "mor": 461, "mult": 462, "mus": 463, "my": 464, "n": 465, "na": 466, "ne": 467, "ner": 468, "ness": 469, "nesses": 470, "no": 471, "non": 472, "o": 473, "ob": 474, "oc": 475, "och": 476, "ock": 477, "ocy": 478, "od": 479, "of": 480, "off": 481, "og": 482, "ogen": 483, "ograph": 484, "oid": 485, "ok": 486, "ol": 487, "old": 488, "ole": 489, "olog": 490, "ological": 491, "ologist": 492, "ology": 493, "om": 494, "oma": 495, "oman": 496, "omat": 497, "ome": 498, "omet": 499, "ometer": 500, "omy": 501, "on": 502, "ond": 503, "one": 504, "ong": 505, "onic": 506, "ons": 507, "ont": 508, "op": 509, "oph": 510, "or": 511, "ord": 512, "ore": 513, "ored": 514, "orm": 515, "orn": 516, "orph": 517, "ors": 518, "ort": 519, "orth": 520, "ory": 521, "os": 522, "oscop": 523, "ose": 524, "osis": 525, "oss": 526, "ost": 527, "ot": 528, "ote": 529, "oth": 530, "otic": 531, "ott": 532, "our": 533, "ous": 534, "ously": 535, "ousness": 536, "out": 537, "ov": 538, "over": 539, "ow": 540, "own": 541, "ox": 542, "p": 543, "pa": 544, "pal": 545, "pan": 546, "par": 547, "pat": 548, "pe": 549, "ped": 550, "pen": 551, "per": 552, "pet": 553, "ph": 554, "phal": 555, "phil": 556, "phot": 557, "phy": 558, "pi": 559, "pin": 560, "ping": 561, "pl": 562, "pla": 563, "ple": 564, "po": 565, "pol": 566, "poly": 567, "por": 568, "port": 569, "pos": 570, "post": 571, "pot": 572, "pr": 573, "pra": 574, "pre": 575, "pred": 576, "pres": 577, "press": 578, "pro": 579, "proof": 580, "prot": 581, "ps": 582, "pse": 583, "pseud": 584, "pt": 585, "pul": 586, "pur": 587, "py": 588, "q": 589, "qu": 590, "quas": 591, "que": 592, "r": 593, "ra": 594, "ral": 595, "ram": 596, "raph": 597, "rat": 598, "re": 599, "rec": 600, "red": 601, "ree": 602, "reg": 603, "rel": 604, "ren": 605, "res": 606, "ret": 607, "rh": 608, "ri": 609, "ric": 610, "rid": 611, "ring": 612, "rit": 613, "ro": 614, "rol": 615, "rom": 616, "ron": 617, "rop": 618, "roph": 619, "ros": 620, "rot": 621, "row": 622, "rown": 623, "ry": 624, "s": 625, "sa": 626, "sal": 627, "sc": 628, "sch": 629, "scr": 630, "se": 631, "sec": 632, "sel": 633, "self": 634, "sem": 635, "ser": 636, "sh": 637, "she": 638, "ship": 639, "sid": 640, "sil": 641, "sk": 642, "sl": 643, "sm": 644, "sn": 645, "so": 646, "sol": 647, "son": 648, "sp": 649, "spir": 650, "spl": 651, "squ": 652, "st": 653, "ste": 654, "ster": 655, "str": 656, "stra": 657, "su": 658, "sub": 659, "sul": 660, "super": 661, "sur": 662, "sw": 663, "sy": 664, "sych": 665, "syn": 666, "t": 667, "ta": 668, "tar": 669, "te": 670, "ted": 671, "ten": 672, "ter": 673, "ters": 674, "tet": 675, "th": 676, "the": 677, "ther": 678, "tic": 679, "tim": 680, "ting": 681, "to": 682, "ton": 683, "top": 684, "tor": 685, "tr": 686, "tra": 687, "tran": 688, "trans": 689, "tre": 690, "tro": 691, "ts": 692, "tur": 693, "tw": 694, "ty": 695, "u": 696, "ual": 697, "ub": 698, "uc": 699, "uch": 700, "uck": 701, "uct": 702, "ud": 703, "ue": 704, "uff": 705, "ug": 706, "ugh": 707, "uk": 708, "ul": 709, "ular": 710, "ulate": 711, "ule": 712, "ull": 713, "ult": 714, "um": 715, "un": 716, "unc": 717, "uncon": 718, "und": 719, "under": 720, "unf": 721, "ung": 722, "unk": 723, "unn": 724, "unre": 725, "uns": 726, "unt": 727, "up": 728, "ur": 729, "ura": 730, "ure": 731, "uro": 732, "us": 733, "ush": 734, "uss": 735, "ust": 736, "ut": 737, "uth": 738, "v": 739, "val": 740, "ve": 741, "vel": 742, "ven": 743, "vent": 744, "ver": 745, "vers": 746, "vi": 747, "ville": 748, "vis": 749, "vol": 750, "w": 751, "wa": 752, "war": 753, "ward": 754, "way": 755, "we": 756, "well": 757, "wh": 758, "wind": 759, "wise": 760, "wo": 761, "wood": 762, "wor": 763, "work": 764, "x": 765, "y": 766, "yg": 767, "yl": 768, "yll": 769, "ym": 770, "yn": 771, "ys": 772, "z": 773, "ze": 774, "zo": 775, "_": 776}